/* Copyright 2020 The TensorFlow Authors. All Rights Reserved.

Licensed under the Apache License, Version 2.0 (the "License");
you may not use this file except in compliance with the License.
You may obtain a copy of the License at

    http://www.apache.org/licenses/LICENSE-2.0

Unless required by applicable law or agreed to in writing, software
distributed under the License is distributed on an "AS IS" BASIS,
WITHOUT WARRANTIES OR CONDITIONS OF ANY KIND, either express or implied.
See the License for the specific language governing permissions and
limitations under the License.
==============================================================================*/

// Automatically created from a TensorFlow Lite flatbuffer using the command:
// xxd -i model.tflite > model.cc

// This is a standard TensorFlow Lite model file that has been converted into a
// C data array, so it can be easily compiled into a binary for devices that
// don't have a file system.

// See train/README.md for a full description of the creation process.

#include "model.h"

// Keep model aligned to 8 bytes to guarantee aligned 64-bit accesses.
//alignas(8) const unsigned char g_model[] = {
alignas(8) const unsigned char g_model[] = {
  0x1c, 0x00, 0x00, 0x00, 0x54, 0x46, 0x4c, 0x33, 0x14, 0x00, 0x20, 0x00,
  0x1c, 0x00, 0x18, 0x00, 0x14, 0x00, 0x10, 0x00, 0x0c, 0x00, 0x00, 0x00,
  0x08, 0x00, 0x04, 0x00, 0x14, 0x00, 0x00, 0x00, 0x1c, 0x00, 0x00, 0x00,
  0x98, 0x00, 0x00, 0x00, 0xf0, 0x00, 0x00, 0x00, 0x14, 0x07, 0x00, 0x00,
  0x24, 0x07, 0x00, 0x00, 0x14, 0x0c, 0x00, 0x00, 0x03, 0x00, 0x00, 0x00,
  0x01, 0x00, 0x00, 0x00, 0x10, 0x00, 0x00, 0x00, 0x00, 0x00, 0x0a, 0x00,
  0x10, 0x00, 0x0c, 0x00, 0x08, 0x00, 0x04, 0x00, 0x0a, 0x00, 0x00, 0x00,
  0x0c, 0x00, 0x00, 0x00, 0x1c, 0x00, 0x00, 0x00, 0x3c, 0x00, 0x00, 0x00,
  0x0f, 0x00, 0x00, 0x00, 0x73, 0x65, 0x72, 0x76, 0x69, 0x6e, 0x67, 0x5f,
  0x64, 0x65, 0x66, 0x61, 0x75, 0x6c, 0x74, 0x00, 0x01, 0x00, 0x00, 0x00,
  0x04, 0x00, 0x00, 0x00, 0x90, 0xff, 0xff, 0xff, 0x09, 0x00, 0x00, 0x00,
  0x04, 0x00, 0x00, 0x00, 0x08, 0x00, 0x00, 0x00, 0x6f, 0x75, 0x74, 0x70,
  0x75, 0x74, 0x5f, 0x30, 0x00, 0x00, 0x00, 0x00, 0x01, 0x00, 0x00, 0x00,
  0x04, 0x00, 0x00, 0x00, 0xba, 0xf9, 0xff, 0xff, 0x04, 0x00, 0x00, 0x00,
  0x0d, 0x00, 0x00, 0x00, 0x69, 0x6e, 0x70, 0x75, 0x74, 0x5f, 0x6c, 0x61,
  0x79, 0x65, 0x72, 0x5f, 0x31, 0x00, 0x00, 0x00, 0x02, 0x00, 0x00, 0x00,
  0x34, 0x00, 0x00, 0x00, 0x04, 0x00, 0x00, 0x00, 0xdc, 0xff, 0xff, 0xff,
  0x0c, 0x00, 0x00, 0x00, 0x04, 0x00, 0x00, 0x00, 0x13, 0x00, 0x00, 0x00,
  0x43, 0x4f, 0x4e, 0x56, 0x45, 0x52, 0x53, 0x49, 0x4f, 0x4e, 0x5f, 0x4d,
  0x45, 0x54, 0x41, 0x44, 0x41, 0x54, 0x41, 0x00, 0x08, 0x00, 0x0c, 0x00,
  0x08, 0x00, 0x04, 0x00, 0x08, 0x00, 0x00, 0x00, 0x0b, 0x00, 0x00, 0x00,
  0x04, 0x00, 0x00, 0x00, 0x13, 0x00, 0x00, 0x00, 0x6d, 0x69, 0x6e, 0x5f,
  0x72, 0x75, 0x6e, 0x74, 0x69, 0x6d, 0x65, 0x5f, 0x76, 0x65, 0x72, 0x73,
  0x69, 0x6f, 0x6e, 0x00, 0x0d, 0x00, 0x00, 0x00, 0x20, 0x06, 0x00, 0x00,
  0x18, 0x06, 0x00, 0x00, 0xc8, 0x05, 0x00, 0x00, 0xb0, 0x01, 0x00, 0x00,
  0x9c, 0x01, 0x00, 0x00, 0x4c, 0x01, 0x00, 0x00, 0xfc, 0x00, 0x00, 0x00,
  0xac, 0x00, 0x00, 0x00, 0xa4, 0x00, 0x00, 0x00, 0x9c, 0x00, 0x00, 0x00,
  0x94, 0x00, 0x00, 0x00, 0x74, 0x00, 0x00, 0x00, 0x04, 0x00, 0x00, 0x00,
  0x6a, 0xfa, 0xff, 0xff, 0x04, 0x00, 0x00, 0x00, 0x60, 0x00, 0x00, 0x00,
  0x10, 0x00, 0x00, 0x00, 0x00, 0x00, 0x00, 0x00, 0x08, 0x00, 0x0e, 0x00,
  0x08, 0x00, 0x04, 0x00, 0x08, 0x00, 0x00, 0x00, 0x10, 0x00, 0x00, 0x00,
  0x24, 0x00, 0x00, 0x00, 0x00, 0x00, 0x06, 0x00, 0x08, 0x00, 0x04, 0x00,
  0x06, 0x00, 0x00, 0x00, 0x04, 0x00, 0x00, 0x00, 0x00, 0x00, 0x00, 0x00,
  0x0c, 0x00, 0x18, 0x00, 0x14, 0x00, 0x10, 0x00, 0x0c, 0x00, 0x04, 0x00,
  0x0c, 0x00, 0x00, 0x00, 0xec, 0xb7, 0xa8, 0x9a, 0xd0, 0xf4, 0x0a, 0xe3,
  0x02, 0x00, 0x00, 0x00, 0x02, 0x00, 0x00, 0x00, 0x04, 0x00, 0x00, 0x00,
  0x06, 0x00, 0x00, 0x00, 0x32, 0x2e, 0x31, 0x39, 0x2e, 0x30, 0x00, 0x00,
  0xd6, 0xfa, 0xff, 0xff, 0x04, 0x00, 0x00, 0x00, 0x10, 0x00, 0x00, 0x00,
  0x31, 0x2e, 0x35, 0x2e, 0x30, 0x00, 0x00, 0x00, 0x00, 0x00, 0x00, 0x00,
  0x00, 0x00, 0x00, 0x00, 0xc8, 0xf5, 0xff, 0xff, 0xcc, 0xf5, 0xff, 0xff,
  0xd0, 0xf5, 0xff, 0xff, 0xfe, 0xfa, 0xff, 0xff, 0x04, 0x00, 0x00, 0x00,
  0x40, 0x00, 0x00, 0x00, 0x85, 0x43, 0x07, 0x3f, 0x24, 0x18, 0xb2, 0xbe,
  0x37, 0xed, 0x18, 0xbd, 0xa0, 0x81, 0x08, 0xbe, 0x39, 0xcb, 0x11, 0x3f,
  0x13, 0xb8, 0x11, 0xbf, 0x34, 0xf1, 0x70, 0xbe, 0x60, 0x35, 0x21, 0xbd,
  0x89, 0x49, 0xf8, 0xbe, 0x93, 0xa8, 0x0a, 0xbd, 0xd0, 0x6a, 0xcb, 0xbe,
  0x4c, 0xbc, 0x66, 0xbe, 0x00, 0x86, 0x78, 0xbb, 0x80, 0x3b, 0xc4, 0xbc,
  0x7d, 0xf2, 0xf0, 0xbe, 0x1a, 0x2a, 0xd9, 0xbe, 0x4a, 0xfb, 0xff, 0xff,
  0x04, 0x00, 0x00, 0x00, 0x40, 0x00, 0x00, 0x00, 0x57, 0x57, 0x95, 0x3c,
  0x00, 0x00, 0x00, 0x00, 0x5c, 0xe8, 0x7d, 0x3f, 0x00, 0x00, 0x00, 0x00,
  0xce, 0x48, 0x1e, 0xbf, 0x00, 0x00, 0x00, 0x00, 0x00, 0x00, 0x00, 0x00,
  0x00, 0x00, 0x00, 0x00, 0x00, 0x00, 0x00, 0x00, 0x8d, 0x17, 0x82, 0x3f,
  0x00, 0x00, 0x00, 0x00, 0x00, 0x00, 0x00, 0x00, 0x00, 0x00, 0x00, 0x00,
  0x00, 0x00, 0x00, 0x00, 0x00, 0x00, 0x00, 0x00, 0x00, 0x00, 0x00, 0x00,
  0x96, 0xfb, 0xff, 0xff, 0x04, 0x00, 0x00, 0x00, 0x40, 0x00, 0x00, 0x00,
  0x00, 0x00, 0x00, 0x00, 0xa7, 0xf3, 0x74, 0x3d, 0x37, 0x4b, 0x20, 0x3e,
  0xff, 0x72, 0xf1, 0xbd, 0x46, 0x96, 0x1d, 0x3f, 0x88, 0x26, 0x37, 0xbe,
  0x33, 0x93, 0xf4, 0xbe, 0x2c, 0x82, 0xc8, 0x3e, 0x67, 0xcf, 0x4d, 0xbe,
  0xcd, 0xd5, 0x84, 0xbb, 0xbc, 0x1a, 0xc6, 0x3d, 0x22, 0x5f, 0xf2, 0x3e,
  0x00, 0x00, 0x00, 0x00, 0x44, 0x3e, 0x4d, 0x3f, 0x6e, 0xac, 0x06, 0xbd,
  0x1c, 0x34, 0x7e, 0xbe, 0xe2, 0xfb, 0xff, 0xff, 0x04, 0x00, 0x00, 0x00,
  0x04, 0x00, 0x00, 0x00, 0xbc, 0x24, 0x60, 0xbe, 0xf2, 0xfb, 0xff, 0xff,
  0x04, 0x00, 0x00, 0x00, 0x00, 0x04, 0x00, 0x00, 0x07, 0x0f, 0x49, 0xbe,
  0x10, 0x1e, 0xeb, 0xbc, 0xe8, 0x8d, 0x7e, 0x3d, 0xe6, 0xe5, 0x58, 0x3e,
  0xea, 0x8f, 0x72, 0xbe, 0x40, 0x6c, 0x46, 0xbc, 0x96, 0x62, 0x2d, 0xbe,
  0x50, 0x96, 0x8b, 0xbd, 0xc8, 0x98, 0x4c, 0xbe, 0x76, 0x08, 0x21, 0xbe,
  0x78, 0x79, 0x8d, 0xbe, 0x82, 0xaa, 0x1b, 0x3e, 0x3e, 0xde, 0xba, 0xbe,
  0xd0, 0x9d, 0x72, 0x3d, 0x1e, 0x0c, 0x8b, 0xbe, 0x44, 0x16, 0xc2, 0xbd,
  0xbf, 0x7f, 0xa6, 0x3e, 0x80, 0x5c, 0x13, 0xbc, 0x74, 0x0d, 0x25, 0x3f,
  0x6b, 0x61, 0x65, 0xbe, 0xbd, 0x24, 0xf2, 0xbe, 0x0e, 0xb2, 0x12, 0xbe,
  0x2a, 0xa1, 0xa9, 0xbe, 0x00, 0xb6, 0xe2, 0x3a, 0xdc, 0x3b, 0xd3, 0x3d,
  0xa6, 0x17, 0xd9, 0x3e, 0x42, 0xd8, 0x27, 0xbe, 0x10, 0x26, 0x88, 0xbc,
  0x7d, 0x10, 0x95, 0xbe, 0x79, 0x0b, 0x96, 0xbe, 0x6a, 0x0f, 0x73, 0x3e,
  0x88, 0x96, 0xcd, 0xbd, 0xab, 0x3c, 0x98, 0xbd, 0xae, 0x20, 0x1e, 0xbe,
  0x8f, 0xd8, 0x98, 0x3e, 0x9a, 0x99, 0x55, 0x3e, 0xbd, 0xd2, 0x75, 0x3d,
  0xde, 0x50, 0xd5, 0xbe, 0xa6, 0xa0, 0x91, 0xbe, 0x80, 0x94, 0x6b, 0x3d,
  0x3c, 0xd0, 0xcb, 0x3d, 0x4b, 0x10, 0xd7, 0x3e, 0xec, 0x2d, 0xf1, 0xbd,
  0xb4, 0x51, 0xca, 0xbe, 0x70, 0xd8, 0x95, 0xbd, 0x15, 0x00, 0xc8, 0x3e,
  0x76, 0x46, 0xab, 0xbe, 0xa0, 0x7d, 0x44, 0xbe, 0xa6, 0x97, 0xad, 0xbe,
  0x63, 0x86, 0xd5, 0x3e, 0xf3, 0x03, 0xa5, 0x3e, 0x10, 0xb9, 0xb6, 0xbe,
  0xfe, 0xff, 0xce, 0xbe, 0xce, 0x5b, 0xce, 0xbe, 0x96, 0xe8, 0x0f, 0xbe,
  0xd8, 0x23, 0x61, 0xbd, 0xb5, 0x40, 0x89, 0xbe, 0x7a, 0xe8, 0x47, 0xbe,
  0x90, 0xdf, 0xa2, 0xbe, 0x5b, 0x8c, 0xc9, 0x3e, 0xf0, 0x24, 0x10, 0xbe,
  0x6e, 0xd7, 0x0f, 0xbe, 0x2c, 0x6e, 0xd1, 0xbe, 0x1d, 0x12, 0x80, 0x3e,
  0xb3, 0xef, 0x67, 0xbf, 0x95, 0x53, 0xad, 0x3e, 0x65, 0x6e, 0xb9, 0x3e,
  0x34, 0x86, 0xaa, 0xbe, 0x90, 0xdd, 0x6d, 0xbe, 0x04, 0xbd, 0xac, 0xbe,
  0xfe, 0x19, 0x38, 0x3e, 0x00, 0xb6, 0x5d, 0x3c, 0xdc, 0xd6, 0x15, 0xbe,
  0xe3, 0x1b, 0xce, 0x3e, 0x00, 0x83, 0xdc, 0xbb, 0xd6, 0x76, 0x09, 0x3e,
  0x2f, 0x1d, 0xb9, 0x3e, 0xd4, 0xd2, 0xb9, 0xbe, 0xb3, 0x64, 0x86, 0x3e,
  0xda, 0x62, 0x82, 0xbe, 0x01, 0xde, 0x5f, 0x3e, 0x40, 0x44, 0x3c, 0x3d,
  0xe2, 0x69, 0x7b, 0xbe, 0x29, 0x38, 0xbe, 0xbe, 0x13, 0xaa, 0x7b, 0x3e,
  0x40, 0x1e, 0xa9, 0xbb, 0xf2, 0xe6, 0xd7, 0xbe, 0xf2, 0xaa, 0x32, 0x3e,
  0x72, 0x4d, 0xb1, 0xbe, 0x4b, 0xd7, 0x91, 0xbd, 0xfd, 0x7e, 0xd3, 0x3e,
  0x0f, 0x8d, 0xa9, 0xbe, 0xb8, 0x58, 0xe4, 0xbd, 0x90, 0xa4, 0x24, 0xbe,
  0xa4, 0x82, 0xe6, 0x3d, 0x83, 0x03, 0xba, 0x3e, 0xb1, 0x5e, 0x92, 0x3e,
  0xf0, 0x73, 0x4a, 0xbe, 0x70, 0xba, 0x15, 0xbf, 0xdc, 0x00, 0x58, 0xbe,
  0xd9, 0xb5, 0x94, 0x3e, 0x82, 0xac, 0x50, 0x3e, 0x34, 0x3d, 0x38, 0xbe,
  0x32, 0xb4, 0x2b, 0x3e, 0x05, 0x58, 0xa8, 0x3e, 0xe0, 0xa2, 0x2f, 0xbf,
  0x0e, 0x36, 0x05, 0x3e, 0x3f, 0xbb, 0x8b, 0x3e, 0xaa, 0xa1, 0x4f, 0x3e,
  0xd4, 0x90, 0x99, 0x3d, 0x8c, 0x76, 0xe2, 0xbd, 0xb3, 0x7e, 0x5f, 0xbe,
  0xaf, 0x6a, 0x90, 0xbf, 0x39, 0x13, 0x8d, 0x3e, 0x4f, 0x13, 0xd9, 0x3e,
  0x9b, 0x39, 0x99, 0x3e, 0x3b, 0x06, 0xe9, 0x3c, 0x8c, 0x5f, 0xb6, 0x3d,
  0xd9, 0xac, 0xb9, 0x3e, 0x7c, 0x58, 0xd2, 0xbd, 0x2b, 0xe3, 0xbd, 0xbe,
  0xa4, 0x29, 0x5b, 0x3e, 0x17, 0x4a, 0xbe, 0xbe, 0x0c, 0x28, 0x68, 0xbe,
  0x65, 0xb0, 0xaa, 0xbe, 0x63, 0xdd, 0xc4, 0x3e, 0x52, 0xf9, 0x01, 0xbe,
  0x48, 0x91, 0x50, 0xbd, 0xe4, 0x35, 0xb1, 0x3e, 0x00, 0x92, 0xe0, 0xba,
  0xec, 0xfb, 0x13, 0xbd, 0x6c, 0x21, 0xda, 0xbd, 0x1b, 0x1f, 0x05, 0x3e,
  0x9e, 0xa5, 0x3f, 0x3e, 0x01, 0xa1, 0xd8, 0x3e, 0xb7, 0x95, 0xd4, 0x3e,
  0xf5, 0xb3, 0xa3, 0xbe, 0x88, 0x3b, 0xa4, 0xbe, 0x60, 0x25, 0x91, 0xbe,
  0x94, 0xaf, 0x2e, 0xbe, 0xfe, 0xfb, 0x7b, 0x3e, 0x60, 0xaf, 0x3d, 0xbc,
  0xc5, 0xae, 0xad, 0x3e, 0x66, 0x76, 0x3d, 0x3e, 0x72, 0xdc, 0x2b, 0xbe,
  0xcb, 0x60, 0xd0, 0x3e, 0x45, 0x6b, 0x21, 0x3d, 0x34, 0x1e, 0xad, 0x3d,
  0xe0, 0x75, 0xd8, 0xbd, 0x9c, 0x53, 0xaf, 0xbd, 0x27, 0xa6, 0xcf, 0x3e,
  0x9f, 0x2a, 0x86, 0xbe, 0xcb, 0xcb, 0x86, 0x3e, 0xe7, 0xc9, 0x10, 0xbd,
  0xeb, 0x4e, 0xcb, 0x3e, 0x9c, 0x1e, 0xa3, 0xbd, 0x10, 0x3e, 0x25, 0xbe,
  0xb2, 0x7d, 0x1b, 0xbe, 0x58, 0xb7, 0x36, 0x3d, 0x5a, 0x2a, 0xb0, 0xbe,
  0xae, 0xc8, 0x66, 0x3e, 0xbe, 0x2f, 0xda, 0xbe, 0x06, 0xa2, 0x61, 0x3d,
  0xdb, 0x2f, 0xaa, 0xbe, 0x4d, 0x57, 0x87, 0x3e, 0x90, 0x53, 0x3e, 0xbd,
  0x94, 0xb6, 0x85, 0x3d, 0x9a, 0x34, 0x0a, 0x3e, 0x14, 0x0f, 0x29, 0xbe,
  0x49, 0xab, 0x1e, 0x3f, 0x58, 0x81, 0x7d, 0x3d, 0x00, 0x65, 0x90, 0x3a,
  0x60, 0xb1, 0x98, 0x3c, 0xc0, 0x80, 0xf6, 0xbb, 0x20, 0x65, 0x5d, 0x3d,
  0x87, 0x67, 0xad, 0x3e, 0x10, 0x90, 0xf6, 0xbe, 0x7c, 0xc2, 0xc2, 0x3d,
  0xe8, 0x6f, 0xfc, 0x3e, 0x6d, 0x67, 0x92, 0x3e, 0x86, 0x76, 0x71, 0x3d,
  0xac, 0xe8, 0x1b, 0xbe, 0x12, 0x8b, 0x34, 0xbe, 0x12, 0x8d, 0x5e, 0x3e,
  0x20, 0xf1, 0x4c, 0xbd, 0x70, 0x98, 0xc0, 0x3e, 0xeb, 0xb9, 0x7f, 0xbe,
  0xcd, 0xfe, 0x9b, 0x3e, 0x1e, 0x73, 0x1a, 0xbe, 0x45, 0x01, 0xb7, 0x3e,
  0x84, 0x48, 0x81, 0xbd, 0xae, 0xe8, 0xcb, 0xbe, 0x4a, 0xe5, 0x01, 0xbe,
  0x04, 0x20, 0x0f, 0xbe, 0x4c, 0xae, 0xe5, 0x3d, 0x69, 0xb2, 0xaf, 0xbe,
  0xc3, 0x9a, 0x79, 0xbe, 0xaa, 0x31, 0x8c, 0xbe, 0xd8, 0xab, 0x00, 0xbe,
  0x8b, 0x06, 0x92, 0x3e, 0x1d, 0x9f, 0xd4, 0x3e, 0x9e, 0x7c, 0xb1, 0xbe,
  0xa2, 0xab, 0xdc, 0xbe, 0x7c, 0x3d, 0x8b, 0xbe, 0x80, 0x7a, 0xdc, 0xbe,
  0x48, 0xf6, 0x45, 0x3d, 0xc4, 0xdb, 0xf6, 0x3d, 0x31, 0xd1, 0xcb, 0x3e,
  0x00, 0x11, 0xdc, 0xbd, 0x17, 0x90, 0xc6, 0xbe, 0x96, 0xe0, 0x82, 0x3e,
  0x00, 0xe8, 0x4c, 0x3c, 0xcb, 0xdb, 0x44, 0xbf, 0xab, 0x17, 0xa6, 0xbe,
  0xf8, 0x6f, 0x4c, 0x3d, 0x9f, 0xd5, 0x9b, 0x3e, 0xfe, 0x38, 0x37, 0x3e,
  0xdc, 0x69, 0x43, 0x3f, 0x72, 0x5c, 0x6f, 0x3e, 0xb6, 0xdb, 0x4f, 0x3e,
  0x41, 0xe9, 0x89, 0x3e, 0x7e, 0x35, 0x1b, 0xbe, 0xc8, 0x33, 0xbc, 0xbe,
  0x60, 0x4e, 0xf9, 0xbc, 0xc7, 0x79, 0x96, 0x3e, 0x4f, 0xa5, 0x82, 0x3e,
  0x54, 0x80, 0xf3, 0xbd, 0x8e, 0x5f, 0x2e, 0x3e, 0xd0, 0xfd, 0x72, 0xbe,
  0xe4, 0x22, 0xa1, 0x3d, 0x50, 0x4c, 0x49, 0x3d, 0x28, 0xea, 0x61, 0xbd,
  0x47, 0xf4, 0xb1, 0xbe, 0x2d, 0x34, 0x47, 0xbe, 0xb9, 0x6c, 0xbd, 0x3e,
  0x55, 0x07, 0xca, 0x3e, 0x57, 0xc4, 0x8b, 0x3e, 0xce, 0xaf, 0xbb, 0xbe,
  0x78, 0x04, 0xe0, 0xbd, 0xc0, 0x2c, 0x81, 0xbd, 0x9f, 0xc5, 0x8b, 0x3e,
  0x4b, 0xcf, 0x99, 0x3e, 0xcb, 0xf1, 0xfc, 0xbe, 0x2e, 0x0e, 0x44, 0x3e,
  0x09, 0xb8, 0xdb, 0x3d, 0xf8, 0x11, 0x82, 0xbd, 0x99, 0xe8, 0xd0, 0x3e,
  0xe1, 0x05, 0x9c, 0x3e, 0xd1, 0xa8, 0x5b, 0xbe, 0x81, 0x24, 0x14, 0x3c,
  0x21, 0x50, 0x8e, 0x3e, 0xa2, 0x7d, 0x42, 0x3e, 0x66, 0xc2, 0x29, 0x3e,
  0x0d, 0x60, 0x8f, 0x3e, 0x8a, 0x7a, 0xa5, 0xbe, 0xd4, 0x27, 0xde, 0xbd,
  0x00, 0x00, 0x06, 0x00, 0x08, 0x00, 0x04, 0x00, 0x06, 0x00, 0x00, 0x00,
  0x04, 0x00, 0x00, 0x00, 0x40, 0x00, 0x00, 0x00, 0x12, 0x34, 0x3f, 0xbe,
  0x9d, 0x78, 0xdc, 0xbe, 0x33, 0x73, 0x0f, 0xbf, 0x40, 0x4e, 0xed, 0x3e,
  0x09, 0x38, 0xa0, 0xbf, 0x79, 0xdb, 0x0f, 0x3f, 0xeb, 0xe8, 0xb9, 0x3f,
  0xa2, 0x04, 0x71, 0xbf, 0xda, 0xec, 0x9b, 0x3e, 0x4b, 0xe5, 0x11, 0x3d,
  0x67, 0x70, 0xf2, 0xbe, 0x04, 0xef, 0x3e, 0x3f, 0xf4, 0xe3, 0xcb, 0x3e,
  0xf3, 0x53, 0xe9, 0x3f, 0xf5, 0x7b, 0x00, 0xbe, 0xce, 0x7e, 0x3e, 0x3f,
  0x28, 0xfb, 0xff, 0xff, 0x2c, 0xfb, 0xff, 0xff, 0x0f, 0x00, 0x00, 0x00,
  0x4d, 0x4c, 0x49, 0x52, 0x20, 0x43, 0x6f, 0x6e, 0x76, 0x65, 0x72, 0x74,
  0x65, 0x64, 0x2e, 0x00, 0x01, 0x00, 0x00, 0x00, 0x14, 0x00, 0x00, 0x00,
  0x00, 0x00, 0x0e, 0x00, 0x18, 0x00, 0x14, 0x00, 0x10, 0x00, 0x0c, 0x00,
  0x08, 0x00, 0x04, 0x00, 0x0e, 0x00, 0x00, 0x00, 0x14, 0x00, 0x00, 0x00,
  0x1c, 0x00, 0x00, 0x00, 0xe8, 0x00, 0x00, 0x00, 0xec, 0x00, 0x00, 0x00,
  0xf0, 0x00, 0x00, 0x00, 0x04, 0x00, 0x00, 0x00, 0x6d, 0x61, 0x69, 0x6e,
  0x00, 0x00, 0x00, 0x00, 0x03, 0x00, 0x00, 0x00, 0x90, 0x00, 0x00, 0x00,
  0x48, 0x00, 0x00, 0x00, 0x04, 0x00, 0x00, 0x00, 0xce, 0xff, 0xff, 0xff,
  0x10, 0x00, 0x00, 0x00, 0x00, 0x00, 0x00, 0x08, 0x0c, 0x00, 0x00, 0x00,
  0x10, 0x00, 0x00, 0x00, 0xa4, 0xfb, 0xff, 0xff, 0x01, 0x00, 0x00, 0x00,
  0x09, 0x00, 0x00, 0x00, 0x03, 0x00, 0x00, 0x00, 0x08, 0x00, 0x00, 0x00,
  0x01, 0x00, 0x00, 0x00, 0x03, 0x00, 0x00, 0x00, 0x00, 0x00, 0x0e, 0x00,
  0x14, 0x00, 0x00, 0x00, 0x10, 0x00, 0x0c, 0x00, 0x0b, 0x00, 0x04, 0x00,
  0x0e, 0x00, 0x00, 0x00, 0x10, 0x00, 0x00, 0x00, 0x00, 0x00, 0x00, 0x08,
  0x10, 0x00, 0x00, 0x00, 0x14, 0x00, 0x00, 0x00, 0xba, 0xff, 0xff, 0xff,
  0x00, 0x00, 0x00, 0x01, 0x01, 0x00, 0x00, 0x00, 0x08, 0x00, 0x00, 0x00,
  0x03, 0x00, 0x00, 0x00, 0x07, 0x00, 0x00, 0x00, 0x02, 0x00, 0x00, 0x00,
  0x04, 0x00, 0x00, 0x00, 0x00, 0x00, 0x0e, 0x00, 0x16, 0x00, 0x00, 0x00,
  0x10, 0x00, 0x0c, 0x00, 0x0b, 0x00, 0x04, 0x00, 0x0e, 0x00, 0x00, 0x00,
  0x18, 0x00, 0x00, 0x00, 0x00, 0x00, 0x00, 0x08, 0x18, 0x00, 0x00, 0x00,
  0x1c, 0x00, 0x00, 0x00, 0x00, 0x00, 0x06, 0x00, 0x08, 0x00, 0x07, 0x00,
  0x06, 0x00, 0x00, 0x00, 0x00, 0x00, 0x00, 0x01, 0x01, 0x00, 0x00, 0x00,
  0x07, 0x00, 0x00, 0x00, 0x03, 0x00, 0x00, 0x00, 0x00, 0x00, 0x00, 0x00,
  0x06, 0x00, 0x00, 0x00, 0x05, 0x00, 0x00, 0x00, 0x01, 0x00, 0x00, 0x00,
  0x09, 0x00, 0x00, 0x00, 0x01, 0x00, 0x00, 0x00, 0x00, 0x00, 0x00, 0x00,
  0x0a, 0x00, 0x00, 0x00, 0x74, 0x03, 0x00, 0x00, 0x1c, 0x03, 0x00, 0x00,
  0xc4, 0x02, 0x00, 0x00, 0x88, 0x02, 0x00, 0x00, 0x4c, 0x02, 0x00, 0x00,
  0xf0, 0x01, 0x00, 0x00, 0xa0, 0x01, 0x00, 0x00, 0x00, 0x01, 0x00, 0x00,
  0x60, 0x00, 0x00, 0x00, 0x04, 0x00, 0x00, 0x00, 0xca, 0xfc, 0xff, 0xff,
  0x00, 0x00, 0x00, 0x01, 0x14, 0x00, 0x00, 0x00, 0x1c, 0x00, 0x00, 0x00,
  0x1c, 0x00, 0x00, 0x00, 0x0a, 0x00, 0x00, 0x00, 0x34, 0x00, 0x00, 0x00,
  0x02, 0x00, 0x00, 0x00, 0xff, 0xff, 0xff, 0xff, 0x01, 0x00, 0x00, 0x00,
  0xb4, 0xfc, 0xff, 0xff, 0x1b, 0x00, 0x00, 0x00, 0x53, 0x74, 0x61, 0x74,
  0x65, 0x66, 0x75, 0x6c, 0x50, 0x61, 0x72, 0x74, 0x69, 0x74, 0x69, 0x6f,
  0x6e, 0x65, 0x64, 0x43, 0x61, 0x6c, 0x6c, 0x5f, 0x31, 0x3a, 0x30, 0x00,
  0x02, 0x00, 0x00, 0x00, 0x01, 0x00, 0x00, 0x00, 0x01, 0x00, 0x00, 0x00,
  0x22, 0xfd, 0xff, 0xff, 0x00, 0x00, 0x00, 0x01, 0x14, 0x00, 0x00, 0x00,
  0x1c, 0x00, 0x00, 0x00, 0x1c, 0x00, 0x00, 0x00, 0x09, 0x00, 0x00, 0x00,
  0x78, 0x00, 0x00, 0x00, 0x02, 0x00, 0x00, 0x00, 0xff, 0xff, 0xff, 0xff,
  0x10, 0x00, 0x00, 0x00, 0x0c, 0xfd, 0xff, 0xff, 0x5e, 0x00, 0x00, 0x00,
  0x73, 0x65, 0x71, 0x75, 0x65, 0x6e, 0x74, 0x69, 0x61, 0x6c, 0x5f, 0x31,
  0x5f, 0x31, 0x2f, 0x64, 0x65, 0x6e, 0x73, 0x65, 0x5f, 0x33, 0x5f, 0x31,
  0x2f, 0x4d, 0x61, 0x74, 0x4d, 0x75, 0x6c, 0x3b, 0x73, 0x65, 0x71, 0x75,
  0x65, 0x6e, 0x74, 0x69, 0x61, 0x6c, 0x5f, 0x31, 0x5f, 0x31, 0x2f, 0x64,
  0x65, 0x6e, 0x73, 0x65, 0x5f, 0x33, 0x5f, 0x31, 0x2f, 0x52, 0x65, 0x6c,
  0x75, 0x3b, 0x73, 0x65, 0x71, 0x75, 0x65, 0x6e, 0x74, 0x69, 0x61, 0x6c,
  0x5f, 0x31, 0x5f, 0x31, 0x2f, 0x64, 0x65, 0x6e, 0x73, 0x65, 0x5f, 0x33,
  0x5f, 0x31, 0x2f, 0x42, 0x69, 0x61, 0x73, 0x41, 0x64, 0x64, 0x00, 0x00,
  0x02, 0x00, 0x00, 0x00, 0x01, 0x00, 0x00, 0x00, 0x10, 0x00, 0x00, 0x00,
  0xbe, 0xfd, 0xff, 0xff, 0x00, 0x00, 0x00, 0x01, 0x14, 0x00, 0x00, 0x00,
  0x1c, 0x00, 0x00, 0x00, 0x1c, 0x00, 0x00, 0x00, 0x08, 0x00, 0x00, 0x00,
  0x78, 0x00, 0x00, 0x00, 0x02, 0x00, 0x00, 0x00, 0xff, 0xff, 0xff, 0xff,
  0x10, 0x00, 0x00, 0x00, 0xa8, 0xfd, 0xff, 0xff, 0x5e, 0x00, 0x00, 0x00,
  0x73, 0x65, 0x71, 0x75, 0x65, 0x6e, 0x74, 0x69, 0x61, 0x6c, 0x5f, 0x31,
  0x5f, 0x31, 0x2f, 0x64, 0x65, 0x6e, 0x73, 0x65, 0x5f, 0x32, 0x5f, 0x31,
  0x2f, 0x4d, 0x61, 0x74, 0x4d, 0x75, 0x6c, 0x3b, 0x73, 0x65, 0x71, 0x75,
  0x65, 0x6e, 0x74, 0x69, 0x61, 0x6c, 0x5f, 0x31, 0x5f, 0x31, 0x2f, 0x64,
  0x65, 0x6e, 0x73, 0x65, 0x5f, 0x32, 0x5f, 0x31, 0x2f, 0x52, 0x65, 0x6c,
  0x75, 0x3b, 0x73, 0x65, 0x71, 0x75, 0x65, 0x6e, 0x74, 0x69, 0x61, 0x6c,
  0x5f, 0x31, 0x5f, 0x31, 0x2f, 0x64, 0x65, 0x6e, 0x73, 0x65, 0x5f, 0x32,
  0x5f, 0x31, 0x2f, 0x42, 0x69, 0x61, 0x73, 0x41, 0x64, 0x64, 0x00, 0x00,
  0x02, 0x00, 0x00, 0x00, 0x01, 0x00, 0x00, 0x00, 0x10, 0x00, 0x00, 0x00,
  0xae, 0xfe, 0xff, 0xff, 0x00, 0x00, 0x00, 0x01, 0x10, 0x00, 0x00, 0x00,
  0x10, 0x00, 0x00, 0x00, 0x07, 0x00, 0x00, 0x00, 0x2c, 0x00, 0x00, 0x00,
  0x34, 0xfe, 0xff, 0xff, 0x1f, 0x00, 0x00, 0x00, 0x73, 0x65, 0x71, 0x75,
  0x65, 0x6e, 0x74, 0x69, 0x61, 0x6c, 0x5f, 0x31, 0x5f, 0x31, 0x2f, 0x64,
  0x65, 0x6e, 0x73, 0x65, 0x5f, 0x32, 0x5f, 0x31, 0x2f, 0x4d, 0x61, 0x74,
  0x4d, 0x75, 0x6c, 0x00, 0x02, 0x00, 0x00, 0x00, 0x10, 0x00, 0x00, 0x00,
  0x01, 0x00, 0x00, 0x00, 0xfa, 0xfe, 0xff, 0xff, 0x00, 0x00, 0x00, 0x01,
  0x10, 0x00, 0x00, 0x00, 0x10, 0x00, 0x00, 0x00, 0x06, 0x00, 0x00, 0x00,
  0x3c, 0x00, 0x00, 0x00, 0x80, 0xfe, 0xff, 0xff, 0x2f, 0x00, 0x00, 0x00,
  0x73, 0x65, 0x71, 0x75, 0x65, 0x6e, 0x74, 0x69, 0x61, 0x6c, 0x5f, 0x31,
  0x5f, 0x31, 0x2f, 0x64, 0x65, 0x6e, 0x73, 0x65, 0x5f, 0x32, 0x5f, 0x31,
  0x2f, 0x42, 0x69, 0x61, 0x73, 0x41, 0x64, 0x64, 0x2f, 0x52, 0x65, 0x61,
  0x64, 0x56, 0x61, 0x72, 0x69, 0x61, 0x62, 0x6c, 0x65, 0x4f, 0x70, 0x00,
  0x01, 0x00, 0x00, 0x00, 0x10, 0x00, 0x00, 0x00, 0x52, 0xff, 0xff, 0xff,
  0x00, 0x00, 0x00, 0x01, 0x10, 0x00, 0x00, 0x00, 0x10, 0x00, 0x00, 0x00,
  0x05, 0x00, 0x00, 0x00, 0x1c, 0x00, 0x00, 0x00, 0xd8, 0xfe, 0xff, 0xff,
  0x0f, 0x00, 0x00, 0x00, 0x61, 0x72, 0x69, 0x74, 0x68, 0x2e, 0x63, 0x6f,
  0x6e, 0x73, 0x74, 0x61, 0x6e, 0x74, 0x33, 0x00, 0x01, 0x00, 0x00, 0x00,
  0x10, 0x00, 0x00, 0x00, 0x8a, 0xff, 0xff, 0xff, 0x00, 0x00, 0x00, 0x01,
  0x10, 0x00, 0x00, 0x00, 0x10, 0x00, 0x00, 0x00, 0x04, 0x00, 0x00, 0x00,
  0x1c, 0x00, 0x00, 0x00, 0x10, 0xff, 0xff, 0xff, 0x0f, 0x00, 0x00, 0x00,
  0x61, 0x72, 0x69, 0x74, 0x68, 0x2e, 0x63, 0x6f, 0x6e, 0x73, 0x74, 0x61,
  0x6e, 0x74, 0x32, 0x00, 0x01, 0x00, 0x00, 0x00, 0x01, 0x00, 0x00, 0x00,
  0xc2, 0xff, 0xff, 0xff, 0x00, 0x00, 0x00, 0x01, 0x10, 0x00, 0x00, 0x00,
  0x10, 0x00, 0x00, 0x00, 0x03, 0x00, 0x00, 0x00, 0x1c, 0x00, 0x00, 0x00,
  0x48, 0xff, 0xff, 0xff, 0x0f, 0x00, 0x00, 0x00, 0x61, 0x72, 0x69, 0x74,
  0x68, 0x2e, 0x63, 0x6f, 0x6e, 0x73, 0x74, 0x61, 0x6e, 0x74, 0x31, 0x00,
  0x02, 0x00, 0x00, 0x00, 0x10, 0x00, 0x00, 0x00, 0x10, 0x00, 0x00, 0x00,
  0x00, 0x00, 0x16, 0x00, 0x18, 0x00, 0x14, 0x00, 0x00, 0x00, 0x10, 0x00,
  0x0c, 0x00, 0x08, 0x00, 0x00, 0x00, 0x00, 0x00, 0x00, 0x00, 0x07, 0x00,
  0x16, 0x00, 0x00, 0x00, 0x00, 0x00, 0x00, 0x01, 0x10, 0x00, 0x00, 0x00,
  0x10, 0x00, 0x00, 0x00, 0x02, 0x00, 0x00, 0x00, 0x1c, 0x00, 0x00, 0x00,
  0x9c, 0xff, 0xff, 0xff, 0x0e, 0x00, 0x00, 0x00, 0x61, 0x72, 0x69, 0x74,
  0x68, 0x2e, 0x63, 0x6f, 0x6e, 0x73, 0x74, 0x61, 0x6e, 0x74, 0x00, 0x00,
  0x02, 0x00, 0x00, 0x00, 0x01, 0x00, 0x00, 0x00, 0x10, 0x00, 0x00, 0x00,
  0x00, 0x00, 0x16, 0x00, 0x1c, 0x00, 0x18, 0x00, 0x00, 0x00, 0x14, 0x00,
  0x10, 0x00, 0x0c, 0x00, 0x00, 0x00, 0x00, 0x00, 0x08, 0x00, 0x07, 0x00,
  0x16, 0x00, 0x00, 0x00, 0x00, 0x00, 0x00, 0x01, 0x14, 0x00, 0x00, 0x00,
  0x20, 0x00, 0x00, 0x00, 0x20, 0x00, 0x00, 0x00, 0x01, 0x00, 0x00, 0x00,
  0x3c, 0x00, 0x00, 0x00, 0x02, 0x00, 0x00, 0x00, 0xff, 0xff, 0xff, 0xff,
  0x01, 0x00, 0x00, 0x00, 0x04, 0x00, 0x04, 0x00, 0x04, 0x00, 0x00, 0x00,
  0x1f, 0x00, 0x00, 0x00, 0x73, 0x65, 0x72, 0x76, 0x69, 0x6e, 0x67, 0x5f,
  0x64, 0x65, 0x66, 0x61, 0x75, 0x6c, 0x74, 0x5f, 0x69, 0x6e, 0x70, 0x75,
  0x74, 0x5f, 0x6c, 0x61, 0x79, 0x65, 0x72, 0x5f, 0x31, 0x3a, 0x30, 0x00,
  0x02, 0x00, 0x00, 0x00, 0x01, 0x00, 0x00, 0x00, 0x01, 0x00, 0x00, 0x00,
  0x01, 0x00, 0x00, 0x00, 0x10, 0x00, 0x00, 0x00, 0x0c, 0x00, 0x0c, 0x00,
  0x0b, 0x00, 0x00, 0x00, 0x00, 0x00, 0x04, 0x00, 0x0c, 0x00, 0x00, 0x00,
  0x09, 0x00, 0x00, 0x00, 0x00, 0x00, 0x00, 0x09
};
const unsigned int g_model_len = 3176;
